<unk>	0
<s>	0
</s>	0
<0x00>	0
<0x01>	0
<0x02>	0
<0x03>	0
<0x04>	0
<0x05>	0
<0x06>	0
<0x07>	0
<0x08>	0
<0x09>	0
<0x0A>	0
<0x0B>	0
<0x0C>	0
<0x0D>	0
<0x0E>	0
<0x0F>	0
<0x10>	0
<0x11>	0
<0x12>	0
<0x13>	0
<0x14>	0
<0x15>	0
<0x16>	0
<0x17>	0
<0x18>	0
<0x19>	0
<0x1A>	0
<0x1B>	0
<0x1C>	0
<0x1D>	0
<0x1E>	0
<0x1F>	0
<0x20>	0
<0x21>	0
<0x22>	0
<0x23>	0
<0x24>	0
<0x25>	0
<0x26>	0
<0x27>	0
<0x28>	0
<0x29>	0
<0x2A>	0
<0x2B>	0
<0x2C>	0
<0x2D>	0
<0x2E>	0
<0x2F>	0
<0x30>	0
<0x31>	0
<0x32>	0
<0x33>	0
<0x34>	0
<0x35>	0
<0x36>	0
<0x37>	0
<0x38>	0
<0x39>	0
<0x3A>	0
<0x3B>	0
<0x3C>	0
<0x3D>	0
<0x3E>	0
<0x3F>	0
<0x40>	0
<0x41>	0
<0x42>	0
<0x43>	0
<0x44>	0
<0x45>	0
<0x46>	0
<0x47>	0
<0x48>	0
<0x49>	0
<0x4A>	0
<0x4B>	0
<0x4C>	0
<0x4D>	0
<0x4E>	0
<0x4F>	0
<0x50>	0
<0x51>	0
<0x52>	0
<0x53>	0
<0x54>	0
<0x55>	0
<0x56>	0
<0x57>	0
<0x58>	0
<0x59>	0
<0x5A>	0
<0x5B>	0
<0x5C>	0
<0x5D>	0
<0x5E>	0
<0x5F>	0
<0x60>	0
<0x61>	0
<0x62>	0
<0x63>	0
<0x64>	0
<0x65>	0
<0x66>	0
<0x67>	0
<0x68>	0
<0x69>	0
<0x6A>	0
<0x6B>	0
<0x6C>	0
<0x6D>	0
<0x6E>	0
<0x6F>	0
<0x70>	0
<0x71>	0
<0x72>	0
<0x73>	0
<0x74>	0
<0x75>	0
<0x76>	0
<0x77>	0
<0x78>	0
<0x79>	0
<0x7A>	0
<0x7B>	0
<0x7C>	0
<0x7D>	0
<0x7E>	0
<0x7F>	0
<0x80>	0
<0x81>	0
<0x82>	0
<0x83>	0
<0x84>	0
<0x85>	0
<0x86>	0
<0x87>	0
<0x88>	0
<0x89>	0
<0x8A>	0
<0x8B>	0
<0x8C>	0
<0x8D>	0
<0x8E>	0
<0x8F>	0
<0x90>	0
<0x91>	0
<0x92>	0
<0x93>	0
<0x94>	0
<0x95>	0
<0x96>	0
<0x97>	0
<0x98>	0
<0x99>	0
<0x9A>	0
<0x9B>	0
<0x9C>	0
<0x9D>	0
<0x9E>	0
<0x9F>	0
<0xA0>	0
<0xA1>	0
<0xA2>	0
<0xA3>	0
<0xA4>	0
<0xA5>	0
<0xA6>	0
<0xA7>	0
<0xA8>	0
<0xA9>	0
<0xAA>	0
<0xAB>	0
<0xAC>	0
<0xAD>	0
<0xAE>	0
<0xAF>	0
<0xB0>	0
<0xB1>	0
<0xB2>	0
<0xB3>	0
<0xB4>	0
<0xB5>	0
<0xB6>	0
<0xB7>	0
<0xB8>	0
<0xB9>	0
<0xBA>	0
<0xBB>	0
<0xBC>	0
<0xBD>	0
<0xBE>	0
<0xBF>	0
<0xC0>	0
<0xC1>	0
<0xC2>	0
<0xC3>	0
<0xC4>	0
<0xC5>	0
<0xC6>	0
<0xC7>	0
<0xC8>	0
<0xC9>	0
<0xCA>	0
<0xCB>	0
<0xCC>	0
<0xCD>	0
<0xCE>	0
<0xCF>	0
<0xD0>	0
<0xD1>	0
<0xD2>	0
<0xD3>	0
<0xD4>	0
<0xD5>	0
<0xD6>	0
<0xD7>	0
<0xD8>	0
<0xD9>	0
<0xDA>	0
<0xDB>	0
<0xDC>	0
<0xDD>	0
<0xDE>	0
<0xDF>	0
<0xE0>	0
<0xE1>	0
<0xE2>	0
<0xE3>	0
<0xE4>	0
<0xE5>	0
<0xE6>	0
<0xE7>	0
<0xE8>	0
<0xE9>	0
<0xEA>	0
<0xEB>	0
<0xEC>	0
<0xED>	0
<0xEE>	0
<0xEF>	0
<0xF0>	0
<0xF1>	0
<0xF2>	0
<0xF3>	0
<0xF4>	0
<0xF5>	0
<0xF6>	0
<0xF7>	0
<0xF8>	0
<0xF9>	0
<0xFA>	0
<0xFB>	0
<0xFC>	0
<0xFD>	0
<0xFE>	0
<0xFF>	0
្រ	-0
ាន	-1
ជា	-2
្ន	-3
ារ	-4
ប្រ	-5
ាំ	-6
បាន	-7
និ	-8
ុង	-9
្ត	-10
ការ	-11
ាស	-12
នៅ	-13
និង	-14
ម្	-15
ដែ	-16
្ស	-17
មាន	-18
្ល	-19
ក្រ	-20
ប់	-21
ង្	-22
ត្រ	-23
្យ	-24
▁និង	-25
ដែល	-26
ាក	-27
ាង	-28
េស	-29
ាម	-30
្នុង	-31
ាល	-32
ូវ	-33
ក្នុង	-34
ព្រ	-35
ោយ	-36
ពី	-37
ាំង	-38
ស់	-39
្ឋ	-40
ភា	-41
ោះ	-42
វិ	-43
ាយ	-44
ួយ	-45
ដ្ឋ	-46
ទី	-47
ិន	-48
រា	-49
្ដ	-50
រប	-51
នៃ	-52
្វ	-53
ទេស	-54
ឆ្ន	-55
▁ស	-56
មួយ	-57
បន	-58
្ម	-59
ត្ត	-60
ព្រះ	-61
ដោយ	-62
ាប់	-63
ាក់	-64
ំណ	-65
កម្	-66
គ្រ	-67
ឆ្នាំ	-68
ប្រទេស	-69
រដ្ឋ	-70
េះ	-71
របស់	-72
ត្រូវ	-73
ំន	-74
ាត	-75
្ធ	-76
្ប	-77
ង់	-78
័យ	-79
ាច	-80
តិ	-81
ើង	-82
▁។	-83
រាជ	-84
ឹង	-85
ទៅ	-86
ប៉	-87
ខាង	-88
ល់	-89
សម	-90
មក	-91
ុន	-92
ួន	-93
ញ្	-94
នេះ	-95
ិត	-96
ុក	-97
ើន	-98
ជន	-99
ើយ	-100
ាន់	-101
្ទ	-102
ភាព	-103
ៀត	-104
គឺ	-105
ូល	-106
្ថ	-107
▁ដែល	-108
ពួ	-109
ង្គ	-110
ែក	-111
ពួក	-112
លើ	-113
ត្រូវបាន	-114
ចិន	-115
ណ្	-116
ស្រ	-117
ពេ	-118
ថា	-119
ច្រ	-120
ឹក	-121
ទាំង	-122
ជាតិ	-123
▁អ	-124
▁ហ	-125
▁១	-126
តែ	-127
គេ	-128
▁ក	-129
សិ	-130
មន	-131
ពុ	-132
ក្រុង	-133
ិច	-134
៊ី	-135
ច្រើន	-136
ទ្រ	-137
ោក	-138
ខ្ល	-139
ដើ	-140
ធ្វ	-141
ូច	-142
ើត	-143
ែង	-144
ិស	-145
ក្ស	-146
ភាគ	-147
ប្រជា	-148
ធ្វើ	-149
ណ្ឌ	-150
▁នៅ	-151
ាណ	-152
ាត់	-153
្ច	-154
បង្	-155
វិទ	-156
ាវ	-157
ទ្ធ	-158
ឡើង	-159
០០	-160
កម្ម	-161
ម៉	-162
ិប	-163
លោក	-164
ែរ	-165
្ត្រ	-166
្នក	-167
វិទ្យ	-168
តាម	-169
ំព	-170
▁រ	-171
▁ជា	-172
ភាស	-173
បុ	-174
វត	-175
បញ្	-176
ាស់	-177
ដូច	-178
ដល់	-179
កម្ពុ	-180
កើត	-181
ពេល	-182
នោះ	-183
ូម	-184
ស្ស	-185
បី	-186
ខ្ម	-187
▁ហើយ	-188
គ្ន	-189
ន្ធ	-190
កម្ពុជា	-191
តំ	-192
ូង	-193
យ៉	-194
អង្គ	-195
នា	-196
ខ្មែរ	-197
វត្ត	-198
ប៉ុន	-199
បន់	-200
ដី	-201
សេ	-202
យោ	-203
េង	-204
ខេ	-205
តំបន់	-206
ឱ្យ	-207
អ្នក	-208
▁ព្រះ	-209
សំ	-210
្គ	-211
ូរ	-212
ទៀត	-213
▁បាន	-214
ភូម	-215
មិន	-216
ួម	-217
នឹង	-218
ទីក្រុង	-219
ចំន	-220
្ង	-221
ណាម	-222
ផ្ស	-223
ចូល	-224
ង្ស	-225
ឆ្នាំ១	-226
ម្រ	-227
រី	-228
▁​	-229
▁ដោយ	-230
ស្ថ	-231
ក៏	-232
ាប	-233
ួល	-234
▁ការ	-235
ជ្	-236
ាញ	-237
ចំនួន	-238
ព័	-239
ន្ល	-240
នៅក្នុង	-241
វៀត	-242
▁មាន	-243
ប្រជាជន	-244
ណ្ដ	-245
ោម	-246
ិក	-247
បំ	-248
▁ច	-249
ុត	-250
ទំន	-251
ខេត្ត	-252
ិច្ច	-253
គ្រប់	-254
ខ្លួន	-255
នាំ	-256
ាល់	-257
យ៉ាង	-258
្នំ	-259
េច	-260
ាស្ត្រ	-261
ាទ	-262
ផ្ល	-263
ុះ	-264
វិញ	-265
▁ប	-266
សម័យ	-267
ជី	-268
▁គ	-269
ម្បី	-270
ាហ	-271
ឥណ្ឌ	-272
វៀតណាម	-273
មហ	-274
ក្រោយ	-275
សត	-276
ដែរ	-277
ដើម្បី	-278
ត់	-279
មុ	-280
ុប	-281
សារ	-282
វត្ស	-283
ាធ	-284
វង្ស	-285
▁ក្នុង	-286
កិច្ច	-287
ទឹក	-288
▁២	-289
ភាសា	-290
ម៌	-291
គឺជា	-292
ធាន	-293
ន្ត	-294
ូន	-295
ជាមួយ	-296
សង្	-297
េរ	-298
និយ	-299
ភិប	-300
បង្កើត	-301
ភិបាល	-302
ណ៍	-303
ូត	-304
កាន់	-305
ចាប់	-306
េញ	-307
ផ្ដ	-308
ថ្ម	-309
នូវ	-310
សម្	-311
គ្រង	-312
មនុ	-313
ស្រុក	-314
ចំណ	-315
ព័ន្ធ	-316
គរ	-317
ញ្ញ	-318
បន្ទ	-319
ដ៏	-320
រាជវង្ស	-321
ធំ	-322
ទទ	-323
▁១៩	-324
ុម	-325
តាំង	-326
ាភិបាល	-327
បរ	-328
ថៃ	-329
ជើង	-330
ផ្ទ	-331
ថ្ង	-332
ផុត	-333
័ព	-334
គ្នា	-335
ត្ប	-336
ថ្ងៃ	-337
ុំ	-338
ជាង	-339
ប្រើ	-340
ផល	-341
ប្ប	-342
ជាច្រើន	-343
គ្រប់គ្រង	-344
លើក	-345
​▁​	-346
ដូចជា	-347
▁ល	-348
ៀង	-349
ពីរ	-350
ទទួល	-351
ណៈ	-352
នុ	-353
រដ្ឋាភិបាល	-354
សាស	-355
ើម	-356
ធម៌	-357
ផ្សេង	-358
ឆ្នាំ១៩	-359
រយ	-360
ពិ	-361
ឯក	-362
▁ទ	-363
សហ	-364
កាល	-365
ាចក្រ	-366
នាក់	-367
ែន	-368
▁ពួក	-369
▁ប្រ	-370
ូប	-371
ត្បូង	-372
ទ័ព	-373
នគរ	-374
ភព	-375
បំផុត	-376
ដើម	-377
ទេ	-378
ភ្នំ	-379
អាស	-380
បច	-381
ើញ	-382
បន្ត	-383
ុល	-384
ឈ្ម	-385
គ្រាម	-386
សតវត្ស	-387
ោល	-388
ចេញ	-389
▁ម	-390
ស្ត	-391
្ខ	-392
▁ខ	-393
បាយ	-394
ទ្ធិ	-395
ជនជាតិ	-396
វិទ្យា	-397
ន៍	-398
ំប	-399
ង្រ	-400
ស្ដ	-401
កំព	-402
អស់	-403
អាណ	-404
ក្រោម	-405
ថ្មី	-406
រួម	-407
ក្រុម	-408
ឈ្មោះ	-409
ខាងត្បូង	-410
នី	-411
ហើយ	-412
​​	-413
អាច	-414
យក	-415
ំណាច	-416
ដឹក	-417
ឃើញ	-418
បន្ទាប់	-419
ជ្រ	-420
ផ្លូវ	-421
ិយ	-422
កាត់	-423
ពល	-424
▁ប្រទេស	-425
សរ	-426
ខាន់	-427
ទ្រង់	-428
្អ	-429
មនុស្ស	-430
ារាំង	-431
ប្រវត្ត	-432
ដ្ឋកិច្ច	-433
ពេញ	-434
ដែលមាន	-435
េយ	-436
ជ្ជ	-437
សិក្ស	-438
មូល	-439
អំណាច	-440
ជំន	-441
ាល័យ	-442
រយៈ	-443
វប្ប	-444
ជប៉ុន	-445
ឿង	-446
▁នៃ	-447
្ព	-448
ដែន	-449
យោបាយ	-450
ល្ប	-451
រាជ្យ	-452
្នាក់	-453
ខាងជើង	-454
សង្គ្រាម	-455
មានការ	-456
រក	-457
។▁នៅ	-458
ដឹកនាំ	-459
ទី១	-460
សំខាន់	-461
ាជ	-462
កង	-463
ធ្ល	-464
ក់	-465
សុ	-466
ក្ល	-467
▁ឬ	-468
ធម្	-469
កំណ	-470
មុន	-471
ស៊ី	-472
ែល	-473
ប្រហ	-474
វប្បធម៌	-475
។▁ស	-476
សម្រ	-477
ប៉ុន្ត	-478
ស៊	-479
ិវ	-480
ំរ	-481
ផ្ន	-482
នយោបាយ	-483
យុ	-484
រ៉	-485
ករ	-486
ផង	-487
ាធារ	-488
េត	-489
្វី	-490
ិបត	-491
សេដ្ឋកិច្ច	-492
អា	-493
ើរ	-494
ពិស	-495
វាង	-496
ព្យ	-497
ដ្ឋាន	-498
មេ	-499
ដំប	-500
ៀន	-501
អំ	-502
ហូត	-503
ត្តិ	-504
ភូមិ	-505
ផ្នែក	-506
្ត្រី	-507
ុយ	-508
▁ត	-509
បារាំង	-510
ប៉ុន្តែ	-511
បទ	-512
លំ	-513
ក្ខ	-514
និយម	-515
▁វ	-516
ិសាស្ត្រ	-517
២០	-518
ផ្សេងៗ	-519
គស	-520
រំ	-521
ចុះ	-522
ច្ប	-523
ដំណ	-524
▁ក៏	-525
មុខ	-526
បុរី	-527
ព្វ	-528
ោង	-529
ធានី	-530
សាសនា	-531
វិស	-532
ឲ្យ	-533
ទន្ល	-534
ប្រក	-535
ុទ្រ	-536
កំ	-537
សី	-538
រស់	-539
ឥណ្ឌា	-540
សភា	-541
▁គឺ	-542
បច្ច	-543
រាជា	-544
េទ	-545
ណ្ត	-546
បក្ស	-547
្មាន	-548
ដំបូង	-549
ស្ថិត	-550
សមុទ្រ	-551
ឹម	-552
រូប	-553
ឡុង	-554
ជាប់	-555
វិទ្យាល័យ	-556
អភ	-557
ែម	-558
ខ្ព	-559
ត្រូវបានគេ	-560
ឌ្	-561
ប្រទេសចិន	-562
ាច់	-563
សិក្សា	-564
កោះ	-565
ចែក	-566
ភូមា	-567
្គាល់	-568
រាណ	-569
ដាក់	-570
ុស	-571
ឌ្ឍ	-572
អង់	-573
រាប់	-574
ត្ដ	-575
បាទ	-576
ម្ល	-577
ិត្ត	-578
ើប	-579
ដែលបាន	-580
▁រឺ	-581
បណ្ដ	-582
ពិភព	-583
អំពី	-584
ក្លាយ	-585
មួយចំនួន	-586
ដង	-587
បាល	-588
ោរ	-589
ភ្ល	-590
ំពោះ	-591
ាធារណ	-592
ៀម	-593
ទុក	-594
ង្គម	-595
េក	-596
ផ្ដើម	-597
ប្រវត្តិសាស្ត្រ	-598
លិច	-599
អាស៊ី	-600
▁៣	-601
្រុក	-602
កុ	-603
ធិ	-604
ចុង	-605
អនុ	-606
សមាជ	-607
មន្ត្រី	-608
▁ដើម្បី	-609
ាធារណរដ្ឋ	-610
ហៅ	-611
្លេស	-612
បុរាណ	-613
និយាយ	-614
▁ព	-615
គ្លេស	-616
ជីវ	-617
តំណ	-618
ខ្លះ	-619
ពិសេស	-620
ពិភពលោក	-621
ឆ្នាំ▁១៩	-622
ីន	-623
ភាគច្រើន	-624
អោយ	-625
វិទ្យាស	-626
ិង	-627
ោត	-628
័ន	-629
ត្ថ	-630
នាម	-631
ិវឌ្ឍ	-632
ក្រៅ	-633
អាណាចក្រ	-634
ណ្ណ	-635
ទាំងអស់	-636
ទឹកដី	-637
ង្ហ	-638
ស្ល	-639
ឡើយ	-640
រវាង	-641
រដ្ឋបាល	-642
ន្តរ	-643
េស៊ី	-644
សមាជិក	-645
បន្ទាប់ពី	-646
▁ព្រ	-647
ទូ	-648
ន់	-649
ួត	-650
ជ័យ	-651
ណ្ដាល	-652
បញ្ជា	-653
សង្គម	-654
ស្ថាន	-655
ការប	-656
ទំនង	-657
្ឆ	-658
ចាស់	-659
ល្បៈ	-660
ក៏បាន	-661
ួរ	-662
នាន	-663
វាយ	-664
ត្តម	-665
រាជធានី	-666
▁ដែលមាន	-667
អង់គ្លេស	-668
ចាត់	-669
ផ្ទៃ	-670
ខ្ពស់	-671
វិស័យ	-672
ស្ដេច	-673
ជុំ	-674
េយ្យ	-675
វា	-676
ស្ន	-677
្បន	-678
លក្ខ	-679
កងទ័ព	-680
វ៉	-681
ដឹង	-682
ផ្ត	-683
បង្ហ	-684
វត្ថ	-685
ិជ្ជ	-686
ទន្លេ	-687
ុប្បន	-688
ក្នុងការ	-689
ព្រះអង្គ	-690
ីយ	-691
ាយក	-692
ថ្នាក់	-693
ក្រោយមក	-694
លាំង	-695
វ្នំ	-696
▁លោក	-697
ផងដែរ	-698
ខាងលិច	-699
ួច	-700
ទ្ធិពល	-701
▁ឆ្នាំ	-702
អ៊	-703
ត្រា	-704
▁គឺជា	-705
ប្រហែល	-706
ចៅ	-707
ធ្យ	-708
ធម្ម	-709
ឥទ្ធិពល	-710
▁ប៉ុន្តែ	-711
ធី	-712
ម្មុ	-713
ធ្វើឱ្យ	-714
អភិវឌ្ឍ	-715
ុប្បន្ន	-716
ខែ	-717
ដៃ	-718
ង្វ	-719
សីហ	-720
ម្មុយ	-721
ម៉ា	-722
អាម	-723
ផលិត	-724
តាំងពី	-725
១៩	-726
ក្ដ	-727
យើង	-728
សាន	-729
កន្ល	-730
▁សង្	-731
▁អ្នក	-732
កណ្ដាល	-733
ឯករាជ្យ	-734
បុរ	-735
០០០	-736
▁តាម	-737
ក្លាយជា	-738
របស់ខ្លួន	-739
គម	-740
ែប	-741
របប	-742
ាតុ	-743
ួង	-744
បញ្ច	-745
ស្រី	-746
ាក្ស	-747
ចំពោះ	-748
ព្រះបាទ	-749
ចរ	-750
នរ	-751
▁ឧ	-752
▁តែ	-753
មកពី	-754
ាក្យ	-755
ច្បាប់	-756
ប្រាស់	-757
មាណ	-758
អន្តរ	-759
ឆ្ល	-760
ធិបត	-761
បង្រ	-762
េរិក	-763
ណាចក្រ	-764
ប្រព័ន្ធ	-765
បដ	-766
ូស	-767
លាវ	-768
ដំណើរ	-769
បញ្ចូល	-770
ិជ្ជកម្ម	-771
្ក	-772
ឆាំង	-773
រហូត	-774
▁ខេត្ត	-775
▁ទ្រង់	-776
ង្ហបុរី	-777
សម្រាប់	-778
រាជាណាចក្រ	-779
ដែនដី	-780
ែងចែក	-781
ណា	-782
លី	-783
មហា	-784
វត្ថុ	-785
ខ្លាំង	-786
ប្រកាស	-787
ូក	-788
ភេទ	-789
ការព	-790
ីក	-791
▁៤	-792
អាមេរិក	-793
ចាប់ផ្ដើម	-794
េន	-795
វិត	-796
ទំនាក់	-797
បង្ហាញ	-798
សិល្បៈ	-799
ីស	-800
ៀវ	-801
ថាជា	-802
ពុទ្ធ	-803
រស់នៅ	-804
លក្ខណៈ	-805
កុម្មុយ	-806
▁៥	-807
ក្ប	-808
ជិត	-809
អធិ	-810
។▁ការ	-811
ប្រឆាំង	-812
ណី	-813
ន័យ	-814
យោធ	-815
រឿង	-816
លាន	-817
កាប់	-818
ព្រំ	-819
ការណ៍	-820
ពួកគេ	-821
ម្រង់	-822
▁ដូចជា	-823
ទាំងនោះ	-824
▁ដែលបាន	-825
ប្រើប្រាស់	-826
គ្គ	-827
ហេត	-828
ខាងកើត	-829
ប្រធាន	-830
មហាក្ស	-831
▁ដែលជា	-832
កម្លាំង	-833
ភ្នំពេញ	-834
មហាក្សត្រ	-835
សាធារណរដ្ឋ	-836
លេ	-837
ស្ម	-838
▁ពី	-839
ក្រហ	-840
ពន្ធ	-841
ព្រៃ	-842
បច្ចុប្បន្ន	-843
▁ដ	-844
កើន	-845
▁ត្រូវបាន	-846
ទំនាក់ទំនង	-847
គោល	-848
ចក្រ	-849
ចំណោម	-850
ធិបតេយ្យ	-851
ងារ	-852
ជាន	-853
ពាក់	-854
ចិនបាន	-855
ឡើងវិញ	-856
▁ទីក្រុង	-857
រៀ	-858
▁៦	-859
និត	-860
▁ម៉	-861
សៀម	-862
បន្ថ	-863
យន្ត	-864
ក្រហម	-865
ត្រឹម	-866
នេះបាន	-867
ិញ	-868
ទី២	-869
យល់	-870
ស្វ	-871
ហ្វ	-872
កំណត់	-873
សាស្ត្រ	-874
ើល	-875
ន្ទ	-876
សាង	-877
ាញ់	-878
ុលា	-879
▁គេ	-880
ដោយសារ	-881
ធ្លាក់	-882
ីត	-883
រីក	-884
សំណ	-885
ក្សរ	-886
ទៅជា	-887
នាយក	-888
▁លាន	-889
ជីវិត	-890
ទម្រង់	-891
ពេលនោះ	-892
▁សង្កាត់	-893
តែង	-894
▁រួម	-895
ឆ្នោត	-896
ជាងគេ	-897
រកឃើញ	-898
▁របស់	-899
ស្គាល់	-900
ភាគខាងត្បូង	-901
២០០	-902
▁ដូច	-903
ផ្ដល់	-904
ាណិជ្ជកម្ម	-905
ហ៊	-906
ាកល	-907
▁ដល់	-908
ប្រមាណ	-909
រយៈពេល	-910
▁ស្រុក	-911
កន្លែង	-912
សម្ព័ន្ធ	-913
ឡា	-914
បែក	-915
ហ្គ	-916
េយ៍	-917
សន្ធ	-918
ប្រតិ	-919
ូនេស៊ី	-920
ទស	-921
គ្នេយ៍	-922
មនុញ្ញ	-923
ការគ្រប់គ្រង	-924
កា	-925
ាក់ទ	-926
កំពុង	-927
សតវត្សទី	-928
សិង្ហបុរី	-929
ឥណ្ឌូនេស៊ី	-930
បើ	-931
▁ជ	-932
្ថាន	-933
ចិត្ត	-934
បត្តិ	-935
បញ្ចប់	-936
អាគ្នេយ៍	-937
កត់	-938
តិច	-939
ឡាវ	-940
ចម្រ	-941
ណ្ឌល	-942
ចេញពី	-943
ពាក្យ	-944
ឥណ្ឌូ	-945
ធម្មនុញ្ញ	-946
ភាគខាងជើង	-947
នរោ	-948
ឆ្នាំ២០	-949
▁និងការ	-950
ផ្លូវការ	-951
▁១៨	-952
ឆ្នេរ	-953
ប្រាំ	-954
▁នៅក្នុង	-955
បង្កើតឡើង	-956
សក	-957
ខ្ស	-958
សុខ	-959
។▁ក	-960
▁ភាសា	-961
កាន់កាប់	-962
រដ្ឋមន្ត្រី	-963
ទាហ	-964
រិយ	-965
សាល	-966
ព្រម	-967
ាស្រ	-968
គំ	-969
ហេតុ	-970
ាកលវិទ្យាល័យ	-971
១០	-972
បស់	-973
អាក	-974
ពង្រ	-975
ត្រួត	-976
សតវត្សទី១	-977
ចល	-978
ឿន	-979
ៀប	-980
មើល	-981
ទសវត្ស	-982
ោះឆ្នោត	-983
តា	-984
រង	-985
ួស	-986
ប៉ុ	-987
ស្ទ	-988
▁២០០	-989
មណ្ឌល	-990
ាធិបត	-991
គាំ	-992
តូច	-993
បែប	-994
ល្អ	-995
វែង	-996
ានៅ	-997
ធាតុ	-998
កំពង់	-999
អង្គរ	-1000
ារបស់	-1001
ពេលដែល	-1002
វត្តន៍	-1003
▁ជាមួយ	-1004
▁៖	-1005
ជួយ	-1006
ឺរ៉	-1007
▁ទី	-1008
នៅលើ	-1009
សរុប	-1010
ឹក្ស	-1011
នៃការ	-1012
សីហនុ	-1013
ឯង	-1014
ឺម៉	-1015
កំឡុង	-1016
ទេសចរ	-1017
ប្រឹក្ស	-1018
ួប	-1019
៉ា	-1020
ប្ដ	-1021
ាក៏	-1022
សព្វ	-1023
អក្សរ	-1024
▁នាក់	-1025
ម្ចាស់	-1026
ស្ថិតនៅ	-1027
អន្តរជាតិ	-1028
ពាណិជ្ជកម្ម	-1029
វិទ្យាសាស្ត្រ	-1030
ភ្	-1031
កាយ	-1032
បង់	-1033
បចំ	-1034
អារ	-1035
▁ទោះ	-1036
តំណាង	-1037
ប៉ុណ្ណ	-1038
រដ្ឋធម្មនុញ្ញ	-1039
ស្	-1040
ើស	-1041
។▁អ	-1042
ដាប់	-1043
សត្វ	-1044
ែត្រ	-1045
ណ្តាល	-1046
អធិរាជ	-1047
ទៃ	-1048
ខុស	-1049
ជ្ឈ	-1050
សេរ	-1051
បន្ថែម	-1052
រ៍	-1053
ចាំ	-1054
ផែន	-1055
លុក	-1056
ស្សាហ	-1057
ធ្លាប់	-1058
ឆ្នាំគស	-1059
ធ្វើការ	-1060
គេស	-1061
លេខ	-1062
▁ប៉	-1063
អ្វី	-1064
ាសាទ	-1065
ប្រភេទ	-1066
ប្រហារ	-1067
នរោត្តម	-1068
អង្គការ	-1069
ប៉ុណ្ណោះ	-1070
ដូវ	-1071
ស៊ូ	-1072
។▁ច	-1073
▁មក	-1074
ម្ដង	-1075
ទាក់ទ	-1076
គាំទ្រ	-1077
ព្រះមហាក្សត្រ	-1078
គី	-1079
ោន	-1080
▁ទៅ	-1081
បរទេស	-1082
ផ្លាស់	-1083
។▁ក្នុង	-1084
ជូន	-1085
▁ខែ	-1086
និស្ត	-1087
រៀបចំ	-1088
បែងចែក	-1089
ាធិបតី	-1090
ឡេ	-1091
ឹត	-1092
ជ្ញ	-1093
ទល់	-1094
ប្រែ	-1095
្ដ្រ	-1096
ដែលជា	-1097
មូលដ្ឋាន	-1098
៧៥	-1099
▁៨	-1100
គារ	-1101
ង្ក	-1102
ូម៉	-1103
▁កង	-1104
ញ្ញា	-1105
ឺរ៉ុប	-1106
ប្រជុំ	-1107
ខ្មែរក្រហម	-1108
វម៌	-1109
អាហ	-1110
▁សិ	-1111
គាល់	-1112
ទូទៅ	-1113
យោធា	-1114
ម្រិត	-1115
យុទ្ធ	-1116
ដៅ	-1117
មា	-1118
ោធ	-1119
សួង	-1120
នានា	-1121
វម៌្ម	-1122
ពួកអ្នក	-1123
កុម្មុយនិស្ត	-1124
ូណ	-1125
កសិ	-1126
ទូល	-1127
ធ្ង	-1128
ម្ម	-1129
ស្ដី	-1130
▁មិន	-1131
ប្ដូរ	-1132
មកដល់	-1133
ប្រជាជាតិ	-1134
▁បន្ទាប់ពី	-1135
▁រដ្ឋាភិបាល	-1136
៉េ	-1137
យោគ	-1138
វិច	-1139
មួយនៃ	-1140
អាកាស	-1141
ការពារ	-1142
ចាប់ពី	-1143
ចាត់ទុក	-1144
ព្រំដែន	-1145
១៨	-1146
ធំៗ	-1147
អប់	-1148
អាយ	-1149
រក្ស	-1150
ហៅថា	-1151
ទាំងនេះ	-1152
រហូតដល់	-1153
▁ហើយបាន	-1154
ខំ	-1155
ទំ	-1156
▁ថ	-1157
មជ្ឈ	-1158
▁ក្រ	-1159
ឺម៉ង់	-1160
កាន់តែ	-1161
ស្សាហកម្ម	-1162
▁ព្រះអង្គ	-1163
គណ	-1164
ុច	-1165
គោរ	-1166
ចោល	-1167
នាស	-1168
អាន	-1169
ជ្រើ	-1170
ណាស់	-1171
ទស្ស	-1172
ិភាព	-1173
្វីប	-1174
▁គ្រ	-1175
សរសេរ	-1176
សិទ្ធិ	-1177
ប្រទេសថៃ	-1178
ប្រវត្តិ	-1179
ប្រជាធិបតេយ្យ	-1180
បូ	-1181
បដិ	-1182
រណ៍	-1183
រាយ	-1184
ឡាយ	-1185
ាទី	-1186
បាត់	-1187
វិធី	-1188
តាមរយៈ	-1189
▁តំបន់	-1190
ប្រាសាទ	-1191
▁ជនជាតិ	-1192
▁ប្រជាជន	-1193
ដឹកនាំដោយ	-1194
រដ្ឋអាមេរិក	-1195
អាស៊ីអាគ្នេយ៍	-1196
ោស	-1197
៧០	-1198
ពិត	-1199
▁១៥	-1200
▁រដ្ឋ	-1201
ភូមិភាគ	-1202
ចុងក្រោយ	-1203
កែ	-1204
គមន	-1205
បំណ	-1206
ានិ	-1207
▁ភាស	-1208
ទៅកាន់	-1209
រួមមាន	-1210
ភាពយន្ត	-1211
ឧប	-1212
▁សហ	-1213
គង្គ	-1214
លទ្ធ	-1215
អត្ថ	-1216
។▁ពួក	-1217
ពង្រីក	-1218
អឺរ៉ុប	-1219
។▁ប្រទេស	-1220
▁រាជវង្ស	-1221
ចំ	-1222
រណ	-1223
វី	-1224
ុធ	-1225
ួញ	-1226
គោក	-1227
។▁ប	-1228
អប់រំ	-1229
កណ្តាល	-1230
នៅឆ្នាំ	-1231
ផ្សេងទៀត	-1232
វេ	-1233
សូវ	-1234
ហាន	-1235
ក្ដី	-1236
តុលា	-1237
ារីស	-1238
ាវុធ	-1239
នេះមាន	-1240
បច្ចេក	-1241
បញ្ជាក់	-1242
▁ជាពិសេស	-1243
នៈ	-1244
ោគ	-1245
អ៊ី	-1246
៊ុន	-1247
រដូវ	-1248
្នេះ	-1249
ខេត្ដ	-1250
ចូលមក	-1251
ស្ថាប	-1252
អាហារ	-1253
ឯកសារ	-1254
▁ក្រុម	-1255
▁ដោយសារ	-1256
ក្រោមការ	-1257
ឥណ្ឌូចិន	-1258
រិ	-1259
សន	-1260
ហិ	-1261
តីត	-1262
ម្ភ	-1263
ាលី	-1264
▁២០	-1265
គោរព	-1266
ឆ្លង	-1267
ជ្ជា	-1268
នេះ។	-1269
ព្រឹ	-1270
នៅថ្ងៃ	-1271
វិជ្ជា	-1272
អាណានិ	-1273
ព្រះរាជ	-1274
នៃប្រទេស	-1275
ប៉ុន្មាន	-1276
មី	-1277
យ៍	-1278
ូយ	-1279
៤៥	-1280
▁គស	-1281
គ្មាន	-1282
ម្នាក់	-1283
ទាំងពីរ	-1284
ទាំងមូល	-1285
ទទួលស្គាល់	-1286
ប្រធានាធិបតី	-1287
តៃ	-1288
ប៊	-1289
ៀក	-1290
ៀស	-1291
ពាន	-1292
រាប	-1293
ដែរ។	-1294
នីតិ	-1295
មធ្យ	-1296
លាស់	-1297
វិនិ	-1298
▁ស្ថ	-1299
គំនិត	-1300
ទីពីរ	-1301
យ៉ាងណ	-1302
មេគង្គ	-1303
ពៃ	-1304
១២	-1305
៦០	-1306
ជន៍	-1307
ដទៃ	-1308
ដោះ	-1309
ថាម	-1310
៊ាន	-1311
▁គី	-1312
ជាក់	-1313
នៅតែ	-1314
លំនៅ	-1315
▁រហូត	-1316
ក្រៅពី	-1317
នៅឆ្នាំ១	-1318
ក្នុងប្រទេស	-1319
ពូ	-1320
ុញ	-1321
គិត	-1322
ផ្អ	-1323
▁វា	-1324
ទ្រឹ	-1325
របាំ	-1326
លាប់	-1327
ង្វៀន	-1328
មិត្ត	-1329
▁ទោះបី	-1330
▁និង▁ស	-1331
នគរវ្នំ	-1332
សំខាន់ៗ	-1333
គេស្គាល់	-1334
ដំណើរការ	-1335
៥០	-1336
គំរ	-1337
ឆ្ង	-1338
លើស	-1339
សែន	-1340
សោយ	-1341
្តី	-1342
អគ្គ	-1343
យុធ្យ	-1344
ព្រះចៅ	-1345
កសិកម្ម	-1346
ធម្មជាតិ	-1347
របស់ប្រទេស	-1348
ូឡ	-1349
ទូត	-1350
បូរ	-1351
យូរ	-1352
រុក	-1353
រជ្ជ	-1354
សំរាប់	-1355
ស្ថានីយ	-1356
អាណានិគម	-1357
ពុទ្ធសាសនា	-1358
ដា	-1359
តាង	-1360
យាន	-1361
កំពូល	-1362
គ្នាន	-1363
ជ្រាវ	-1364
តំណែង	-1365
ថ្មីៗ	-1366
ច្បាស់	-1367
របស់លោក	-1368
▁លាននាក់	-1369
ក្នុងចំណោម	-1370
ឧស្សាហកម្ម	-1371
សាកលវិទ្យាល័យ	-1372
័រ	-1373
▁៧	-1374
គួរ	-1375
បុរេ	-1376
មួយៗ	-1377
▁ចិន	-1378
តែមួយ	-1379
ទំនើប	-1380
មុទ្រ	-1381
ឧត្តម	-1382
ទាក់ទង	-1383
បានទទួល	-1384
ាវជ្រាវ	-1385
សា	-1386
ះប	-1387
វាល	-1388
ត្ដិ	-1389
បុត្រ	-1390
កម្រិត	-1391
ចក្រភព	-1392
ជិតខាង	-1393
បង្រួម	-1394
សម្រេច	-1395
ប្រតិបត្តិ	-1396
ដក	-1397
ណ៌	-1398
តួ	-1399
ត៌	-1400
▁៩	-1401
ញ្ច	-1402
មែន	-1403
រុង	-1404
វិល	-1405
សកល	-1406
សង់	-1407
អាង	-1408
▁គម	-1409
ដ៏ធំ	-1410
ពៃណី	-1411
ភ្លាម	-1412
អាវុធ	-1413
ជុំវិញ	-1414
ផ្ទាល់	-1415
រិយធម៌	-1416
អាស៊ាន	-1417
ាក្នុង	-1418
កម្មភាព	-1419
ការធ្វើ	-1420
ខ្លួនឯង	-1421
ព្រះនាម	-1422
ម្ព័ន្ធ	-1423
▁ដោយមាន	-1424
សព្វថ្ងៃ	-1425
អភិវឌ្ឍន៍	-1426
អន	-1427
ច្ច	-1428
រួច	-1429
ហ្ស	-1430
▁សំ	-1431
បញ្ញ	-1432
ាចារ	-1433
ះបោរ	-1434
្លាន	-1435
ទៅដល់	-1436
ទៅវិញ	-1437
ផ្សារ	-1438
កើនឡើង	-1439
ប្រមូល	-1440
លំដាប់	-1441
▁ក្រោយ	-1442
▁ក្រោយមក	-1443
ព្រះសីហនុ	-1444
ព្រះរាជាណាចក្រ	-1445
ឈើ	-1446
រល	-1447
ឃុំ	-1448
ដែង	-1449
ទេព	-1450
ករណ៍	-1451
ក្រម	-1452
គមន៍	-1453
ាស៊ី	-1454
ិត្រ	-1455
ិន្ទ	-1456
ទីមួយ	-1457
ទៅនឹង	-1458
ន្លោះ	-1459
ក្រសួង	-1460
ចម្រើន	-1461
ទាហរណ៍	-1462
ាក៏ដោយ	-1463
ិយាល័យ	-1464
បានធ្វើ	-1465
▁វៀតណាម	-1466
ទ្រឹស្ដី	-1467
មេដឹកនាំ	-1468
មជ្ឈមណ្ឌល	-1469
ជំ	-1470
ដាំ	-1471
តារ	-1472
លុយ	-1473
▁សេ	-1474
▁១២	-1475
ាង្គ	-1476
▁មុន	-1477
ក៏ដោយ	-1478
ឆ្ងាយ	-1479
នីស្ត	-1480
ផ្តើម	-1481
ផ្អែក	-1482
ចូលរួម	-1483
ទីតាំង	-1484
▁និងបាន	-1485
▁កម្ពុជា	-1486
ប្រឆាំងនឹង	-1487
័ត	-1488
▁ឆ	-1489
ជំរ	-1490
បឹង	-1491
ម័យ	-1492
ាល្ល	-1493
ុតាង	-1494
▁នគរ	-1495
▁ស៊ី	-1496
ជំនួយ	-1497
ត៌មាន	-1498
ន័យថា	-1499
បំផ្ល	-1500
ប្រភព	-1501
ភ្លើង	-1502
ស្រូវ	-1503
ួនាទី	-1504
អយុធ្យ	-1505
▁និង▁អ	-1506
លាននាក់	-1507
បន្តបន្ទាប់	-1508
សហប្រជាជាតិ	-1509
ធន	-1510
ហា	-1511
១៧	-1512
កូន	-1513
ដេច	-1514
មាស	-1515
យោង	-1516
សាម	-1517
ឡូម៉	-1518
អតីត	-1519
ាកាន	-1520
ាមួយ	-1521
▁ទើប	-1522
វ៉ាន់	-1523
ជាភាសា	-1524
បង្រួប	-1525
បង្អស់	-1526
▁ក្រុង	-1527
ប្រពៃណី	-1528
កម្ពុជា។	-1529
ឡូម៉ែត្រ	-1530
▁ឆ្នាំ១៩	-1531
ជីវវិទ្យា	-1532
ាល្លឺម៉ង់	-1533
ក្នុងស្រុក	-1534
នេះត្រូវបាន	-1535
គណៈ	-1536
ចេះ	-1537
ប៉ា	-1538
ផ្គ	-1539
ពណ៌	-1540
ត្រី	-1541
ិច្ឆ	-1542
ួមីន	-1543
បញ្ជី	-1544
ផ្សាយ	-1545
ពិសោធ	-1546
ប្រចាំ	-1547
មានភាព	-1548
លទ្ធផល	-1549
▁កងទ័ព	-1550
ទទួលបាន	-1551
ទៅក្នុង	-1552
ួមីនតាង	-1553
ស្ថានីយ៍	-1554
រច	-1555
▁ភ	-1556
កាស	-1557
ដែក	-1558
ណាន	-1559
អំព	-1560
ានុ	-1561
ោសិ	-1562
▁១៤	-1563
បណ្ត	-1564
ឡើយ។	-1565
ាជ្ញ	-1566
ទ្វីប	-1567
កើតឡើង	-1568
ជាប្រទេស	-1569
ក្នុងតំបន់	-1570
ស្រាវជ្រាវ	-1571
▁ក៏ប៉ុន្តែ	-1572
យ៉ាងណាក៏ដោយ	-1573
ក្រុមប្រឹក្ស	-1574
ឹះ	-1575
ឺន	-1576
១៣	-1577
ចម្	-1578
ដើរ	-1579
និក	-1580
ពុំ	-1581
លេច	-1582
លែង	-1583
្យូ	-1584
ក្រុ	-1585
នៅទី	-1586
បន្ស	-1587
វាំង	-1588
ជាអ្នក	-1589
ជ្រើសរ	-1590
លុកលុយ	-1591
ិស្ថាន	-1592
▁ស្ថិត	-1593
ែទម្រង់	-1594
ដោយសារតែ	-1595
ប្រជាមាន	-1596
▁ការសិក្សា	-1597
ចំនួនប្រជាជន	-1598
សហរដ្ឋអាមេរិក	-1599
លា	-1600
លោ	-1601
ុណ	-1602
៧៨	-1603
ឈាន	-1604
ខ្សែ	-1605
ជាន់	-1606
ាចិន	-1607
ំណែក	-1608
▁នេះ	-1609
▁ស្រ	-1610
ជំនួស	-1611
ធ្ងន់	-1612
បង្ខំ	-1613
មធ្យម	-1614
ផ្ទៃដី	-1615
ាធារណៈ	-1616
ឈ្មោះថា	-1617
វិនិយោគ	-1618
▁និងមាន	-1619
គួមីនតាង	-1620
រូបវិទ្យា	-1621
ឱ្យមានការ	-1622
ប្រជាមានិត	-1623
ការបោះឆ្នោត	-1624
នៅលើពិភពលោក	-1625
▁សាធារណរដ្ឋ	-1626
ោទ	-1627
១៥	-1628
▁ន	-1629
គល់	-1630
ចេន	-1631
បួន	-1632
រៀង	-1633
្ដី	-1634
្វា	-1635
▁បើ	-1636
ដើម។	-1637
ត្រឡ	-1638
ទៅលើ	-1639
វត្ដ	-1640
វិទូ	-1641
ួសារ	-1642
ក្រឹត	-1643
ទូលាយ	-1644
ទំនាប	-1645
សហភាព	-1646
និងការ	-1647
នីមួយៗ	-1648
មិនបាន	-1649
▁ត្រូវ	-1650
ស្តុតាង	-1651
អរិយធម៌	-1652
▁ក្រៅពី	-1653
ដ៏សំខាន់	-1654
▁ដូច្នេះ	-1655
▁ធ្វើឱ្យ	-1656
ធ្លាក់ចុះ	-1657
នៅក្នុងប្រទេស	-1658
យូ	-1659
១៤	-1660
▁ធ	-1661
ចំរ	-1662
ច្ឆ	-1663
ទេ។	-1664
ប្ត	-1665
ពូជ	-1666
ភ្ញ	-1667
រឹង	-1668
សល់	-1669
េសា	-1670
▁ថៃ	-1671
▁វិ	-1672
ដណ្ដ	-1673
ានិយ	-1674
គ្រឿង	-1675
គ្រោះ	-1676
ចំណែក	-1677
និស្ស	-1678
នៅតាម	-1679
ប្រកប	-1680
ចន្លោះ	-1681
មិនអាច	-1682
ឧបករណ៍	-1683
ទេសចរណ៍	-1684
ការិយាល័យ	-1685
នៅឆ្នាំ១៩	-1686
ចាប់តាំងពី	-1687
ទន្លេមេគង្គ	-1688
មហាវិទ្យាល័យ	-1689
អូ	-1690
៧៩	-1691
កូល	-1692
ចាម	-1693
នាគ	-1694
្	-1695
ា	-1696
ន	-1697
រ	-1698
ក	-1699
ប	-1700
▁	-1701
ស	-1702
ម	-1703
ង	-1704
ត	-1705
ល	-1706
ិ	-1707
យ	-1708
​	-1709
ទ	-1710
ដ	-1711
ជ	-1712
ុ	-1713
់	-1714
ព	-1715
ំ	-1716
ច	-1717
វ	-1718
ី	-1719
េ	-1720
គ	-1721
ូ	-1722
ើ	-1723
ែ	-1724
ោ	-1725
អ	-1726
ណ	-1727
ះ	-1728
ួ	-1729
ៅ	-1730
។	-1731
ខ	-1732
ភ	-1733
ធ	-1734
ហ	-1735
ថ	-1736
ញ	-1737
ៃ	-1738
៉	-1739
ផ	-1740
ឹ	-1741
័	-1742
១	-1743
ឆ	-1744
ៀ	-1745
ឋ	-1746
០	-1747
ឡ	-1748
ឺ	-1749
៊	-1750
២	-1751
៩	-1752
៍	-1753
៏	-1754
ៈ	-1755
ឌ	-1756
៥	-1757
ៗ	-1758
ឈ	-1759
៣	-1760
៧	-1761
៤	-1762
៨	-1763
ឥ	-1764
៦	-1765
ឱ	-1766
៌	-1767
ឃ	-1768
ឯ	-1769
ឧ	-1770
ឿ	-1771
ឬ	-1772
ឲ	-1773
៖	-1774
ឍ	-1775
ឝ	-1776
ឫ	-1777
ឦ	-1778
ឪ	-1779
៕	-1780
ឩ	-1781
ឞ	-1782
ឮ	-1783
ឭ	-1784
ឳ	-1785
ឰ	-1786
៘	-1787
៛	-1788
